{
  "": 0,
  "": 1521,
  "": 1159,
  "": 1452,
  "": 1469,
  "": 1604,
  "": 1962,
  "": 1,
  "": 2,
  "": 3,
  "": 4,
  "": 5,
  "": 6,
  "": 7,
  "": 8,
  "": 9,
  "": 10,
  "": 11,
  "": 12,
  "": 13,
  "": 14,
  "": 15,
  "": 16,
  "": 17,
  "": 18,
  "": 19,
  "": 20,
  "": 21,
  "": 22,
  "": 23,
  "": 24,
  "": 25,
  "": 26,
  "": 27,
  "": 28,
  "": 29,
  "": 30,
  "": 31,
  "": 32,
  "": 33,
  "": 34,
  "": 35,
  "": 36,
  "": 37,
  "": 38,
  "": 39,
  "": 40,
  "": 41,
  "": 42,
  "": 43,
  "": 44,
  "": 45,
  "": 46,
  "": 47,
  "": 48,
  "": 49,
  "": 50,
  "": 51,
  "": 52,
  "": 53,
  "": 54,
  "": 55,
  "": 56,
  "": 57,
  "": 58,
  "": 59,
  "": 60,
  "": 61,
  "": 62,
  "": 63,
  "": 64,
  "": 65,
  "": 66,
  "": 67,
  "": 68,
  "": 69,
  "": 70,
  "": 71,
  "": 72,
  "": 73,
  "": 74,
  "": 75,
  "": 76,
  "": 77,
  "": 78,
  "": 79,
  "": 80,
  "": 81,
  "": 82,
  "": 83,
  "": 84,
  "": 85,
  "": 86,
  "": 87,
  "": 88,
  "": 89,
  "": 90,
  "": 91,
  "": 92,
  "": 93,
  "": 94,
  "": 95,
  "": 96,
  "": 97,
  "": 98,
  "": 99,
  "": 100,
  "": 101,
  "": 102,
  "": 103,
  "": 104,
  "": 105,
  "": 106,
  "": 107,
  "": 108,
  "": 109,
  "": 110,
  "": 111,
  "": 112,
  "": 113,
  "": 114,
  "": 115,
  "": 116,
  "": 117,
  "": 118,
  "": 119,
  "": 120,
  "": 121,
  "": 122,
  "": 123,
  "": 124,
  "": 125,
  "": 126,
  "": 127,
  "": 128,
  "": 129,
  "": 130,
  "": 131,
  "": 132,
  "": 133,
  "": 134,
  "": 135,
  "": 136,
  "": 137,
  "": 138,
  "": 139,
  "": 140,
  "": 141,
  "": 142,
  "": 143,
  "": 144,
  "": 145,
  "": 146,
  "": 147,
  "": 148,
  "": 149,
  "": 150,
  "": 151,
  "": 152,
  "": 153,
  "": 154,
  "": 155,
  "": 156,
  "": 157,
  "": 158,
  "": 159,
  "": 160,
  "": 161,
  "": 162,
  "": 163,
  "": 164,
  "": 165,
  "": 166,
  "": 167,
  "": 168,
  "": 169,
  "": 170,
  "": 171,
  "": 172,
  "": 173,
  "": 174,
  "": 175,
  "": 176,
  "": 177,
  "": 178,
  "": 179,
  "": 180,
  "": 181,
  "": 182,
  "": 183,
  "": 184,
  "": 185,
  "": 186,
  "": 187,
  "": 188,
  "": 189,
  "": 190,
  "": 191,
  "": 192,
  "": 193,
  "": 194,
  "": 195,
  "": 196,
  "": 197,
  "": 198,
  "": 199,
  "": 200,
  "": 201,
  "": 202,
  "": 203,
  "": 204,
  "": 205,
  "": 206,
  "": 207,
  "": 208,
  "": 209,
  "": 210,
  "": 211,
  "": 212,
  "": 213,
  "": 214,
  "": 215,
  "": 216,
  "": 217,
  "": 218,
  "": 219,
  "": 220,
  "": 221,
  "": 222,
  "": 223,
  "": 224,
  "": 225,
  "": 226,
  "": 227,
  "": 228,
  "": 229,
  "": 230,
  "": 231,
  "": 232,
  "": 233,
  "": 234,
  "": 235,
  "": 236,
  "": 237,
  "": 238,
  "": 239,
  "": 240,
  "": 241,
  "": 242,
  "": 243,
  "": 244,
  "": 245,
  "": 246,
  "": 247,
  "": 248,
  "": 249,
  "": 250,
  "": 251,
  "": 252,
  "": 253,
  "": 254,
  "": 255,
  "": 256,
  "": 257,
  "": 258,
  "": 259,
  "": 260,
  "": 261,
  "": 262,
  "": 263,
  "": 264,
  "": 265,
  "": 266,
  "": 267,
  "": 268,
  "": 269,
  "": 270,
  "": 271,
  "": 272,
  "": 273,
  "": 274,
  "": 275,
  "": 276,
  "": 277,
  "": 278,
  "": 279,
  "": 280,
  "": 281,
  "": 282,
  "": 283,
  "": 284,
  "": 285,
  "": 286,
  "": 287,
  "": 288,
  "": 289,
  "": 290,
  "": 291,
  "": 292,
  "": 293,
  "": 294,
  "": 295,
  "": 296,
  "": 297,
  "": 298,
  "": 299,
  "": 300,
  "": 301,
  "": 302,
  "": 303,
  "": 304,
  "": 305,
  "": 306,
  "": 307,
  "": 308,
  "": 309,
  "": 310,
  "": 311,
  "": 312,
  "": 313,
  "": 314,
  "": 315,
  "": 316,
  "": 317,
  "": 318,
  "": 319,
  "": 320,
  "": 321,
  "": 322,
  "": 323,
  "": 324,
  "": 325,
  "": 326,
  "": 327,
  "": 328,
  "": 329,
  "": 330,
  "": 331,
  "": 332,
  "": 333,
  "": 334,
  "": 335,
  "": 336,
  "": 337,
  "": 338,
  "": 339,
  "": 340,
  "": 341,
  "": 342,
  "": 343,
  "": 344,
  "": 345,
  "": 346,
  "": 347,
  "": 348,
  "": 349,
  "": 350,
  "": 351,
  "": 352,
  "": 353,
  "": 354,
  "": 355,
  "": 356,
  "": 357,
  "": 358,
  "": 359,
  "": 360,
  "": 361,
  "": 362,
  "": 363,
  "": 364,
  "": 365,
  "": 366,
  "": 367,
  "": 368,
  "": 369,
  "": 370,
  "": 371,
  "": 372,
  "": 373,
  "": 374,
  "": 375,
  "": 376,
  "": 377,
  "": 378,
  "": 379,
  "": 380,
  "": 381,
  "": 382,
  "": 383,
  "": 384,
  "": 385,
  "": 386,
  "": 387,
  "": 388,
  "": 389,
  "": 390,
  "": 391,
  "": 392,
  "": 393,
  "": 394,
  "": 395,
  "": 396,
  "": 397,
  "": 398,
  "": 399,
  "": 400,
  "": 401,
  "": 402,
  "": 403,
  "": 404,
  "": 405,
  "": 406,
  "": 407,
  "": 408,
  "": 409,
  "": 410,
  "": 411,
  "": 412,
  "": 413,
  "": 414,
  "": 415,
  "": 416,
  "": 417,
  "": 1796,
  "": 418,
  "": 419,
  "": 2029,
  "": 2037,
  "": 420,
  "": 1842,
  "": 421,
  "": 1717,
  "": 1869,
  "": 422,
  "": 1645,
  "": 1891,
  "": 1606,
  "": 1870,
  "": 423,
  "": 1882,
  "": 2030,
  "": 1633,
  "": 424,
  "": 1624,
  "": 1726,
  "": 1509,
  "": 1897,
  "": 1701,
  "": 425,
  "": 1782,
  "": 1938,
  "": 1504,
  "": 1951,
  "": 1811,
  "": 426,
  "": 1535,
  "": 1602,
  "": 2026,
  "": 1441,
  "": 1826,
  "": 1801,
  "": 1750,
  "": 427,
  "": 1368,
  "": 1466,
  "": 1847,
  "": 1327,
  "": 1607,
  "": 1583,
  "": 1490,
  "": 1691,
  "": 1748,
  "": 428,
  "": 1372,
  "": 1579,
  "": 1935,
  "": 1388,
  "": 1759,
  "": 1615,
  "": 1576,
  "": 1939,
  "": 2045,
  "": 429,
  "": 1202,
  "": 1216,
  "": 1783,
  "": 1532,
  "": 1245,
  "": 1512,
  "": 1430,
  "": 1737,
  "": 1407,
  "": 1698,
  "": 1770,
  "": 1779,
  "": 1673,
  "": 430,
  "": 1274,
  "": 1367,
  "": 1858,
  "": 1590,
  "": 1280,
  "": 1534,
  "": 1516,
  "": 2023,
  "": 1513,
  "": 1956,
  "": 431,
  "": 1240,
  "": 1812,
  "": 1408,
  "": 1844,
  "": 1710,
  "": 1262,
  "": 1533,
  "": 1520,
  "": 2042,
  "": 1437,
  "": 1794,
  "": 1780,
  "": 432,
  "": 1297,
  "": 1384,
  "": 1926,
  "": 1991,
  "": 1647,
  "": 1268,
  "": 2036,
  "": 1493,
  "": 1524,
  "": 1467,
  "": 1941,
  "": 1912,
  "": 1986,
  "": 1821,
  "": 433,
  "": 1445,
  "": 1592,
  "": 1738,
  "": 1807,
  "": 1293,
  "": 1499,
  "": 1573,
  "": 1491,
  "": 1888,
  "": 1903,
  "": 434,
  "": 1402,
  "": 1338,
  "": 1723,
  "": 1959,
  "": 2011,
  "": 1538,
  "": 1222,
  "": 1401,
  "": 1413,
  "": 2034,
  "": 1348,
  "": 1714,
  "": 1760,
  "": 1699,
  "": 1630,
  "": 435,
  "": 1515,
  "": 1663,
  "": 1755,
  "": 1273,
  "": 1488,
  "": 1511,
  "": 2002,
  "": 1449,
  "": 1773,
  "": 1972,
  "": 1867,
  "": 436,
  "": 1427,
  "": 1593,
  "": 1637,
  "": 1246,
  "": 1927,
  "": 1438,
  "": 1412,
  "": 1790,
  "": 1351,
  "": 1642,
  "": 1703,
  "": 1650,
  "": 1627,
  "": 437,
  "": 1376,
  "": 1457,
  "": 2038,
  "": 1901,
  "": 1543,
  "": 1239,
  "": 1420,
  "": 1461,
  "": 1978,
  "": 1419,
  "": 1835,
  "": 1889,
  "": 1840,
  "": 1837,
  "": 438,
  "": 1306,
  "": 1514,
  "": 1634,
  "": 1988,
  "": 1920,
  "": 1843,
  "": 1965,
  "": 1795,
  "": 1614,
  "": 1219,
  "": 1863,
  "": 1325,
  "": 1746,
  "": 1421,
  "": 1789,
  "": 1354,
  "": 1628,
  "": 1823,
  "": 1813,
  "": 1700,
  "": 439,
  "": 1382,
  "": 1477,
  "": 1561,
  "": 1214,
  "": 1904,
  "": 1484,
  "": 1342,
  "": 1678,
  "": 1261,
  "": 1854,
  "": 1555,
  "": 1560,
  "": 1981,
  "": 1510,
  "": 1687,
  "": 1559,
  "": 1848,
  "": 440,
  "": 1339,
  "": 1523,
  "": 1741,
  "": 1568,
  "": 1213,
  "": 1787,
  "": 1425,
  "": 1371,
  "": 1641,
  "": 1310,
  "": 1539,
  "": 1635,
  "": 1936,
  "": 1617,
  "": 1868,
  "": 1674,
  "": 1994,
  "": 441,
  "": 1318,
  "": 1472,
  "": 1722,
  "": 1322,
  "": 1205,
  "": 1989,
  "": 2027,
  "": 1878,
  "": 1943,
  "": 1856,
  "": 1767,
  "": 1341,
  "": 1312,
  "": 1586,
  "": 1263,
  "": 1480,
  "": 1546,
  "": 1585,
  "": 1892,
  "": 1554,
  "": 1922,
  "": 442,
  "": 1403,
  "": 1595,
  "": 1243,
  "": 2000,
  "": 1453,
  "": 1406,
  "": 1732,
  "": 1317,
  "": 1588,
  "": 1654,
  "": 1670,
  "": 1665,
  "": 443,
  "": 1377,
  "": 1501,
  "": 1209,
  "": 2033,
  "": 2018,
  "": 1756,
  "": 1664,
  "": 1442,
  "": 1328,
  "": 1623,
  "": 1255,
  "": 1898,
  "": 1907,
  "": 1482,
  "": 1545,
  "": 1918,
  "": 1547,
  "": 1970,
  "": 1552,
  "": 1874,
  "": 444,
  "": 1358,
  "": 1980,
  "": 1622,
  "": 1226,
  "": 1955,
  "": 1455,
  "": 1400,
  "": 1776,
  "": 1308,
  "": 1528,
  "": 1648,
  "": 1676,
  "": 2046,
  "": 1692,
  "": 445,
  "": 1422,
  "": 1656,
  "": 1233,
  "": 2039,
  "": 1517,
  "": 1415,
  "": 1680,
  "": 1299,
  "": 1890,
  "": 1540,
  "": 1667,
  "": 1763,
  "": 1684,
  "": 446,
  "": 1295,
  "": 1923,
  "": 1963,
  "": 1806,
  "": 1671,
  "": 1215,
  "": 2031,
  "": 1825,
  "": 1434,
  "": 2040,
  "": 1373,
  "": 1771,
  "": 1290,
  "": 1522,
  "": 1564,
  "": 1992,
  "": 1639,
  "": 1594,
  "": 2015,
  "": 447,
  "": 1468,
  "": 1251,
  "": 1556,
  "": 1486,
  "": 1827,
  "": 1340,
  "": 1603,
  "": 1704,
  "": 1715,
  "": 1706,
  "": 448,
  "": 1404,
  "": 1250,
  "": 1862,
  "": 1613,
  "": 1399,
  "": 1696,
  "": 1294,
  "": 1859,
  "": 1548,
  "": 1558,
  "": 2019,
  "": 1618,
  "": 1982,
  "": 1589,
  "": 1877,
  "": 449,
  "": 1416,
  "": 1272,
  "": 1625,
  "": 1496,
  "": 1359,
  "": 1619,
  "": 1730,
  "": 1839,
  "": 1768,
  "": 450,
  "": 1409,
  "": 1257,
  "": 1838,
  "": 1873,
  "": 1495,
  "": 1924,
  "": 1345,
  "": 1616,
  "": 1735,
  "": 1774,
  "": 1658,
  "": 451,
  "": 1433,
  "": 1849,
  "": 1304,
  "": 1507,
  "": 2003,
  "": 1393,
  "": 1718,
  "": 1689,
  "": 1809,
  "": 1711,
  "": 452,
  "": 1450,
  "": 1353,
  "": 1610,
  "": 1498,
  "": 1908,
  "": 1957,
  "": 453,
  "": 1346,
  "": 1921,
  "": 1871,
  "": 1952,
  "": 1655,
  "": 1271,
  "": 1928,
  "": 1950,
  "": 2012,
  "": 1934,
  "": 1850,
  "": 1474,
  "": 1833,
  "": 1394,
  "": 1747,
  "": 1734,
  "": 1879,
  "": 1805,
  "": 454,
  "": 1446,
  "": 1791,
  "": 1319,
  "": 1565,
  "": 1448,
  "": 1915,
  "": 1940,
  "": 2006,
  "": 455,
  "": 1355,
  "": 2001,
  "": 1944,
  "": 1916,
  "": 1702,
  "": 1269,
  "": 1753,
  "": 1757,
  "": 1725,
  "": 1793,
  "": 1752,
  "": 1644,
  "": 2043,
  "": 2013,
  "": 1473,
  "": 1860,
  "": 1398,
  "": 1719,
  "": 1742,
  "": 1797,
  "": 1646,
  "": 456,
  "": 1405,
  "": 2035,
  "": 2028,
  "": 1973,
  "": 1990,
  "": 1652,
  "": 1282,
  "": 2009,
  "": 1886,
  "": 1662,
  "": 1537,
  "": 2008,
  "": 1411,
  "": 1804,
  "": 1792,
  "": 1831,
  "": 1761,
  "": 457,
  "": 1436,
  "": 1966,
  "": 1997,
  "": 1872,
  "": 2016,
  "": 1909,
  "": 1303,
  "": 1958,
  "": 1900,
  "": 1960,
  "": 1987,
  "": 1694,
  "": 1948,
  "": 1577,
  "": 1497,
  "": 1929,
  "": 458,
  "": 1374,
  "": 1612,
  "": 1984,
  "": 1819,
  "": 1677,
  "": 1649,
  "": 1894,
  "": 1775,
  "": 1686,
  "": 1998,
  "": 1893,
  "": 1287,
  "": 1739,
  "": 1681,
  "": 1785,
  "": 1810,
  "": 1695,
  "": 1620,
  "": 1919,
  "": 1885,
  "": 1975,
  "": 1829,
  "": 1536,
  "": 1864,
  "": 1454,
  "": 1744,
  "": 1861,
  "": 2032,
  "": 1913,
  "": 459,
  "": 1530,
  "": 1356,
  "": 1993,
  "": 1876,
  "": 1942,
  "": 1855,
  "": 1683,
  "": 1688,
  "": 1946,
  "": 1557,
  "": 460,
  "": 1432,
  "": 1653,
  "": 1828,
  "": 1707,
  "": 1679,
  "": 1895,
  "": 1798,
  "": 1777,
  "": 1672,
  "": 1967,
  "": 1880,
  "": 1316,
  "": 1799,
  "": 1712,
  "": 1841,
  "": 1720,
  "": 1731,
  "": 1611,
  "": 1976,
  "": 1995,
  "": 1574,
  "": 1816,
  "": 1508,
  "": 1914,
  "": 461,
  "": 1481,
  "": 1917,
  "": 2044,
  "": 1905,
  "": 1866,
  "": 1937,
  "": 2021,
  "": 1386,
  "": 2041,
  "": 1881,
  "": 2004,
  "": 1884,
  "": 1721,
  "": 1800,
  "": 2020,
  "": 1631,
  "": 462,
  "": 1462,
  "": 1621,
  "": 1999,
  "": 1808,
  "": 1708,
  "": 1693,
  "": 1968,
  "": 1745,
  "": 1802,
  "": 1751,
  "": 1378,
  "": 1765,
  "": 1660,
  "": 1766,
  "": 1788,
  "": 1971,
  "": 1724,
  "": 1598,
  "": 1964,
  "": 1727,
  "": 1822,
  "": 1659,
  "": 463,
  "": 1526,
  "": 1875,
  "": 1902,
  "": 1931,
  "": 1969,
  "": 1896,
  "": 1383,
  "": 1781,
  "": 1784,
  "": 1803,
  "": 1832,
  "": 1736,
  "": 1597,
  "": 2017,
  "": 1820,
  "": 1830,
  "": 1690,
  "": 1996,
  "": 464,
  "": 1575,
  "": 1910,
  "": 1979,
  "": 1487,
  "": 1974,
  "": 1887,
  "": 2047,
  "": 1961,
  "": 1651,
  "": 1945,
  "": 465,
  "": 1525,
  "": 1930,
  "": 1911,
  "": 1899,
  "": 2024,
  "": 1444,
  "": 1865,
  "": 1817,
  "": 1906,
  "": 1883,
  "": 1851,
  "": 1605,
  "": 2005,
  "": 2010,
  "": 1846,
  "": 466,
  "": 1580,
  "": 1553,
  "": 2014,
  "": 1985,
  "": 1836,
  "": 1977,
  "": 467,
  "": 1519,
  "": 1492,
  "": 1824,
  "": 468,
  "": 1600,
  "": 1566,
  "": 1953,
  "": 469,
  "": 1668,
  "": 470,
  "": 2022,
  "": 471,
  "": 472,
  "": 473,
  "": 474,
  "": 475,
  "": 476,
  "": 477,
  "": 478,
  "": 479,
  "": 480,
  "": 481,
  "": 482,
  "": 483,
  "": 484,
  "": 485,
  "": 486,
  "": 487,
  "": 488,
  "": 489,
  "": 490,
  "": 491,
  "": 492,
  "": 493,
  "": 494,
  "": 495,
  "": 496,
  "": 497,
  "": 498,
  "": 499,
  "": 500,
  "": 501,
  "": 502,
  "": 503,
  "": 504,
  "": 505,
  "": 506,
  "": 507,
  "": 508,
  "": 509,
  "": 510,
  "": 511,
  "": 512,
  "": 513,
  "": 514,
  "": 1156,
  "": 1207,
  "": 1743,
  "": 1267,
  "": 1278,
  "": 1223,
  "": 1932,
  "": 1281,
  "": 1315,
  "": 1220,
  "": 1853,
  "": 1313,
  "": 1320,
  "": 1241,
  "": 2025,
  "": 1309,
  "": 1326,
  "": 1155,
  "": 1169,
  "": 1740,
  "": 1764,
  "": 1587,
  "": 1685,
  "": 1682,
  "": 1815,
  "": 1599,
  "": 1542,
  "": 1186,
  "": 1311,
  "": 1174,
  "": 1396,
  "": 1175,
  "": 1275,
  "": 1171,
  "": 1479,
  "": 1187,
  "": 1324,
  "": 1179,
  "": 1431,
  "": 1181,
  "": 1229,
  "": 1350,
  "": 1697,
  "": 1428,
  "": 1369,
  "": 1323,
  "": 1302,
  "": 1550,
  "": 1332,
  "": 1258,
  "": 1292,
  "": 1256,
  "": 1260,
  "": 1259,
  "": 1234,
  "": 1270,
  "": 1231,
  "": 1249,
  "": 1224,
  "": 1236,
  "": 1265,
  "": 1235,
  "": 1286,
  "": 1252,
  "": 1291,
  "": 1330,
  "": 1370,
  "": 1505,
  "": 1518,
  "": 1643,
  "": 1709,
  "": 1954,
  "": 1158,
  "": 1184,
  "": 1666,
  "": 1230,
  "": 1337,
  "": 1199,
  "": 1478,
  "": 1197,
  "": 1423,
  "": 1200,
  "": 1551,
  "": 1218,
  "": 1361,
  "": 1201,
  "": 1541,
  "": 1192,
  "": 1349,
  "": 1465,
  "": 1460,
  "": 1506,
  "": 1414,
  "": 1464,
  "": 1387,
  "": 1360,
  "": 1418,
  "": 1352,
  "": 1417,
  "": 1333,
  "": 1390,
  "": 1435,
  "": 1365,
  "": 1429,
  "": 1397,
  "": 1483,
  "": 1529,
  "": 1582,
  "": 1852,
  "": 1983,
  "": 1154,
  "": 1180,
  "": 1198,
  "": 1173,
  "": 1182,
  "": 1178,
  "": 1189,
  "": 1177,
  "": 1762,
  "": 1170,
  "": 1160,
  "": 1190,
  "": 1288,
  "": 1814,
  "": 1194,
  "": 1786,
  "": 1237,
  "": 1933,
  "": 1191,
  "": 1253,
  "": 1754,
  "": 1185,
  "": 1531,
  "": 1204,
  "": 1845,
  "": 1395,
  "": 1389,
  "": 1379,
  "": 1949,
  "": 1357,
  "": 1716,
  "": 1669,
  "": 1549,
  "": 1640,
  "": 1572,
  "": 1661,
  "": 1733,
  "": 1772,
  "": 1161,
  "": 1227,
  "": 1242,
  "": 1632,
  "": 1208,
  "": 1232,
  "": 1206,
  "": 1248,
  "": 1334,
  "": 1183,
  "": 1284,
  "": 1163,
  "": 1296,
  "": 1366,
  "": 1758,
  "": 1301,
  "": 1362,
  "": 1279,
  "": 1298,
  "": 1544,
  "": 1228,
  "": 1424,
  "": 1157,
  "": 1210,
  "": 1247,
  "": 1203,
  "": 1217,
  "": 1195,
  "": 1601,
  "": 1193,
  "": 1188,
  "": 1385,
  "": 1162,
  "": 1264,
  "": 1410,
  "": 1244,
  "": 1426,
  "": 1238,
  "": 1266,
  "": 1221,
  "": 1456,
  "": 1164,
  "": 1305,
  "": 1489,
  "": 1321,
  "": 1439,
  "": 1596,
  "": 1211,
  "": 1364,
  "": 1344,
  "": 1527,
  "": 1168,
  "": 1391,
  "": 1675,
  "": 1463,
  "": 1500,
  "": 1285,
  "": 1563,
  "": 1503,
  "": 1778,
  "": 1165,
  "": 1329,
  "": 1440,
  "": 1314,
  "": 1254,
  "": 1289,
  "": 1578,
  "": 1343,
  "": 1567,
  "": 1167,
  "": 1375,
  "": 1657,
  "": 1331,
  "": 1381,
  "": 1363,
  "": 1834,
  "": 1451,
  "": 1705,
  "": 1176,
  "": 1475,
  "": 1608,
  "": 1749,
  "": 1307,
  "": 1636,
  "": 1570,
  "": 1591,
  "": 1925,
  "": 1196,
  "": 1581,
  "": 1769,
  "": 1471,
  "": 1713,
  "": 1729,
  "": 515,
  "": 1166,
  "": 1392,
  "": 1335,
  "": 1300,
  "": 1476,
  "": 1494,
  "": 1172,
  "": 1443,
  "": 1569,
  "": 1447,
  "": 1626,
  "": 1638,
  "": 1212,
  "": 1459,
  "": 1857,
  "": 1283,
  "": 1629,
  "": 1225,
  "": 1584,
  "": 1947,
  "": 1277,
  "": 1818,
  "": 1336,
  "": 1470,
  "": 1276,
  "": 1347,
  "": 1485,
  "": 1571,
  "": 1458,
  "": 1562,
  "": 1609,
  "": 1728,
  "": 516,
  "": 1380,
  "": 1502,
  "": 2007,
  "": 517,
  "": 518,
  "": 519,
  "": 520,
  "": 521,
  "": 522,
  "": 523,
  "": 524,
  "": 525,
  "": 526,
  "": 527,
  "": 528,
  "": 529,
  "": 530,
  "": 531,
  "": 532,
  "": 533,
  "": 534,
  "": 535,
  "": 536,
  "": 537,
  "": 538,
  "": 539,
  "": 540,
  "": 541,
  "": 542,
  "": 543,
  "": 544,
  "": 545,
  "": 546,
  "": 547,
  "": 548,
  "": 549,
  "": 550,
  "": 551,
  "": 552,
  "": 553,
  "": 554,
  "": 555,
  "": 556,
  "": 557,
  "": 558,
  "": 559,
  "": 560,
  "": 561,
  "": 562,
  "": 563,
  "": 564,
  "": 565,
  "": 566,
  "": 567,
  "": 568,
  "": 569,
  "": 570,
  "": 571,
  "": 572,
  "": 573,
  "": 574,
  "": 575,
  "": 576,
  "": 577,
  "": 578,
  "": 579,
  "": 580,
  "": 581,
  "": 582,
  "": 583,
  "": 584,
  "": 585,
  "": 586,
  "": 587,
  "": 588,
  "": 589,
  "": 590,
  "": 591,
  "": 592,
  "": 593,
  "": 594,
  "": 595,
  "": 596,
  "": 597,
  "": 598,
  "": 599,
  "": 600,
  "": 601,
  "": 602,
  "": 603,
  "": 604,
  "": 605,
  "": 606,
  "": 607,
  "": 608,
  "": 609,
  "": 610,
  "": 611,
  "": 612,
  "": 613,
  "": 614,
  "": 615,
  "": 616,
  "": 617,
  "": 618,
  "": 619,
  "": 620,
  "": 621,
  "": 622,
  "": 623,
  "": 624,
  "": 625,
  "": 626,
  "": 627,
  "": 628,
  "": 629,
  "": 630,
  "": 631,
  "": 632,
  "": 633,
  "": 634,
  "": 635,
  "": 636,
  "": 637,
  "": 638,
  "": 639,
  "": 640,
  "": 641,
  "": 642,
  "": 643,
  "": 644,
  "": 645,
  "": 646,
  "": 647,
  "": 648,
  "": 649,
  "": 650,
  "": 651,
  "": 652,
  "": 653,
  "": 654,
  "": 655,
  "": 656,
  "": 657,
  "": 658,
  "": 659,
  "": 660,
  "": 661,
  "": 662,
  "": 663,
  "": 664,
  "": 665,
  "": 666,
  "": 667,
  "": 668,
  "": 669,
  "": 670,
  "": 671,
  "": 672,
  "": 673,
  "": 674,
  "": 675,
  "": 676,
  "": 677,
  "": 678,
  "": 679,
  "": 680,
  "": 681,
  "": 682,
  "": 683,
  "": 684,
  "": 685,
  "": 686,
  "": 687,
  "": 688,
  "": 689,
  "": 690,
  "": 691,
  "": 692,
  "": 693,
  "": 694,
  "": 695,
  "": 696,
  "": 697,
  "": 698,
  "": 699,
  "": 700,
  "": 701,
  "": 702,
  "": 703,
  "": 704,
  "": 705,
  "": 706,
  "": 707,
  "": 708,
  "": 709,
  "": 710,
  "": 711,
  "": 712,
  "": 713,
  "": 714,
  "": 715,
  "": 716,
  "": 717,
  "": 718,
  "": 719,
  "": 720,
  "": 721,
  "": 722,
  "": 723,
  "": 724,
  "": 725,
  "": 726,
  "": 727,
  "": 728,
  "": 729,
  "": 730,
  "": 731,
  "": 732,
  "": 733,
  "": 734,
  "": 735,
  "": 736,
  "": 737,
  "": 738,
  "": 739,
  "": 740,
  "": 741,
  "": 742,
  "": 743,
  "": 744,
  "": 745,
  "": 746,
  "": 747,
  "": 748,
  "": 749,
  "": 750,
  "": 751,
  "": 752,
  "": 753,
  "": 754,
  "": 755,
  "": 756,
  "": 757,
  "": 758,
  "": 759,
  "": 760,
  "": 761,
  "": 762,
  "": 763,
  "": 764,
  "": 765,
  "": 766,
  "": 767,
  "": 768,
  "": 769,
  "": 770,
  "": 771,
  "": 772,
  "": 773,
  "": 774,
  "": 775,
  "": 776,
  "": 777,
  "": 778,
  "": 779,
  "": 780,
  "": 781,
  "": 782,
  "": 783,
  "": 784,
  "": 785,
  "": 786,
  "": 787,
  "": 788,
  "": 789,
  "": 790,
  "": 791,
  "": 792,
  "": 793,
  "": 794,
  "": 795,
  "": 796,
  "": 797,
  "": 798,
  "": 799,
  "": 800,
  "": 801,
  "": 802,
  "": 803,
  "": 804,
  "": 805,
  "": 806,
  "": 807,
  "": 808,
  "": 809,
  "": 810,
  "": 811,
  "": 812,
  "": 813,
  "": 814,
  "": 815,
  "": 816,
  "": 817,
  "": 818,
  "": 819,
  "": 820,
  "": 821,
  "": 822,
  "": 823,
  "": 824,
  "": 825,
  "": 826,
  "": 827,
  "": 828,
  "": 829,
  "": 830,
  "": 831,
  "": 832,
  "": 833,
  "": 834,
  "": 835,
  "": 836,
  "": 837,
  "": 838,
  "": 839,
  "": 840,
  "": 841,
  "": 842,
  "": 843,
  "": 844,
  "": 845,
  "": 846,
  "": 847,
  "": 848,
  "": 849,
  "": 850,
  "": 851,
  "": 852,
  "": 853,
  "": 854,
  "": 855,
  "": 856,
  "": 857,
  "": 858,
  "": 859,
  "": 860,
  "": 861,
  "": 862,
  "": 863,
  "": 864,
  "": 865,
  "": 866,
  "": 867,
  "": 868,
  "": 869,
  "": 870,
  "": 871,
  "": 872,
  "": 873,
  "": 874,
  "": 875,
  "": 876,
  "": 877,
  "": 878,
  "": 879,
  "": 880,
  "": 881,
  "": 882,
  "": 883,
  "": 884,
  "": 885,
  "": 886,
  "": 887,
  "": 888,
  "": 889,
  "": 890,
  "": 891,
  "": 892,
  "": 893,
  "": 894,
  "": 895,
  "": 896,
  "": 897,
  "": 898,
  "": 899,
  "": 900,
  "": 901,
  "": 902,
  "": 903,
  "": 904,
  "": 905,
  "": 906,
  "": 907,
  "": 908,
  "": 909,
  "": 910,
  "": 911,
  "": 912,
  "": 913,
  "": 914,
  "": 915,
  "": 916,
  "": 917,
  "": 918,
  "": 919,
  "": 920,
  "": 921,
  "": 922,
  "": 923,
  "": 924,
  "": 925,
  "": 926,
  "": 927,
  "": 928,
  "": 929,
  "": 930,
  "": 931,
  "": 932,
  "": 933,
  "": 934,
  "": 935,
  "": 936,
  "": 937,
  "": 938,
  "": 939,
  "": 940,
  "": 941,
  "": 942,
  "": 943,
  "": 944,
  "": 945,
  "": 946,
  "": 947,
  "": 948,
  "": 949,
  "": 950,
  "": 951,
  "": 952,
  "": 953,
  "": 954,
  "": 955,
  "": 956,
  "": 957,
  "": 958,
  "": 959,
  "": 960,
  "": 961,
  "": 962,
  "": 963,
  "": 964,
  "": 965,
  "": 966,
  "": 967,
  "": 968,
  "": 969,
  "": 970,
  "": 971,
  "": 972,
  "": 973,
  "": 974,
  "": 975,
  "": 976,
  "": 977,
  "": 978,
  "": 979,
  "": 980,
  "": 981,
  "": 982,
  "": 983,
  "": 984,
  "": 985,
  "": 986,
  "": 987,
  "": 988,
  "": 989,
  "": 990,
  "": 991,
  "": 992,
  "": 993,
  "": 994,
  "": 995,
  "": 996,
  "": 997,
  "": 998,
  "": 999,
  "": 1000,
  "": 1001,
  "": 1002,
  "": 1003,
  "": 1004,
  "": 1005,
  "": 1006,
  "": 1007,
  "": 1008,
  "": 1009,
  "": 1010,
  "": 1011,
  "": 1012,
  "": 1013,
  "": 1014,
  "": 1015,
  "": 1016,
  "": 1017,
  "": 1018,
  "": 1019,
  "": 1020,
  "": 1021,
  "": 1022,
  "": 1023,
  "": 1024,
  "": 1025,
  "": 1026,
  "": 1027,
  "": 1028,
  "": 1029,
  "": 1030,
  "": 1031,
  "": 1032,
  "": 1033,
  "": 1034,
  "": 1035,
  "": 1036,
  "": 1037,
  "": 1038,
  "": 1039,
  "": 1040,
  "": 1041,
  "": 1042,
  "": 1043,
  "": 1044,
  "": 1045,
  "": 1046,
  "": 1047,
  "": 1048,
  "": 1049,
  "": 1050,
  "": 1051,
  "": 1052,
  "": 1053,
  "": 1054,
  "": 1055,
  "": 1056,
  "": 1057,
  "": 1058,
  "": 1059,
  "": 1060,
  "": 1061,
  "": 1062,
  "": 1063,
  "": 1064,
  "": 1065,
  "": 1066,
  "": 1067,
  "": 1068,
  "": 1069,
  "": 1070,
  "": 1071,
  "": 1072,
  "": 1073,
  "": 1074,
  "": 1075,
  "": 1076,
  "": 1077,
  "": 1078,
  "": 1079,
  "": 1080,
  "": 1081,
  "": 1082,
  "": 1083,
  "": 1084,
  "": 1085,
  "": 1086,
  "": 1087,
  "": 1088,
  "": 1089,
  "": 1090,
  "": 1091,
  "": 1092,
  "": 1093,
  "": 1094,
  "": 1095,
  "": 1096,
  "": 1097,
  "": 1098,
  "": 1099,
  "": 1100,
  "": 1101,
  "": 1102,
  "": 1103,
  "": 1104,
  "": 1105,
  "": 1106,
  "": 1107,
  "": 1108,
  "": 1109,
  "": 1110,
  "": 1111,
  "": 1112,
  "": 1113,
  "": 1114,
  "": 1115,
  "": 1116,
  "": 1117,
  "": 1118,
  "": 1119,
  "": 1120,
  "": 1121,
  "": 1122,
  "": 1123,
  "": 1124,
  "": 1125,
  "": 1126,
  "": 1127,
  "": 1128,
  "": 1129,
  "": 1130,
  "": 1131,
  "": 1132,
  "": 1133,
  "": 1134,
  "": 1135,
  "": 1136,
  "": 1137,
  "": 1138,
  "": 1139,
  "": 1140,
  "": 1141,
  "": 1142,
  "": 1143,
  "": 1144,
  "": 1145,
  "": 1146,
  "": 1147,
  "": 1148,
  "": 1149,
  "": 1150,
  "": 1151,
  "": 1152,
  "": 1153
}
